" :
m e
": "
{ "
a me
e r
a r
, "
" ,"
":" s
s ":
n g
} }
{" n
{"n ame
s": {"
t r
" }}
i ng
t er
"," p
","p ar
","par ame
","parame ter
":"s tr
":"str ing
{"name ":"
: \s
":"string "}}
o o
e t
t i
et _
t e
[ {"name":"
ti me
oo l
, {"name":"
{"name ":"s
l a
Q u
Qu er
Quer y
Query :\s
T ool
Tool s
Tools :\s
e a
a p
e n
me n
"," ar
","ar g
","arg u
","argu men
","argumen t
o n
et_ time
":"string ","
"}} ]
","argument s":{"
":"string"}} ]
ap p
n u
m a
[ {"name":"s
t h
t o
u s
a l
ma i
mai l
en d
a n
l o
l i
[{"name":" g
e mail
, {"name":"s
i c
j e
s": {
s":{ }}
s e
w ea
wea th
weath er
al ar
alar m
end _
end_ email
s u
su b
sub je
subje c
subjec t
m i
c a
mi nu
minu te
r oo
roo m
o p
g h
op en
li gh
ligh t
la ng
c r
p la
pla y
cr ea
crea te
create _
create_ alarm
open _
open_ app
et_time r
ti on
et_ weather
lo ca
loca tion
c h
tr an
tran s
trans la
transla te
a m
s o
e \s
se ar
sear ch
b er
play _
play_ m
play_m us
play_mus ic
so ng
et_ light
,{"name":" g
minute s
w e
we b
web _
web_ search
te x
tex t
s":{" to
":" b
c o
s":{" time
s":{" app
s":{" location
\s i
s":{}} ]
s":{" minutes
s":{"minutes ":"
nu m
num ber
s":{" song
s":{" room
":"string"," on
":"b ool
":"bool ea
":"boolea n
s":{" text
":"string"," lang
s":{" q
us er
@ e
@e x
@ex am
@exam p
@examp l
@exampl e
@example .
@example. co
@example.co m
t \s
r \s
a s
a \s
k ar
[ ]
Query:\s s
}} ]
h e
":"boolean "}}
number "}}
he l
hel lo
o f
\si n
et \s
o u
s":{}} ,{"name":"
\s th
\sth e\s
Query:\ss et\s
f o
e s
3 0
k as
kas i
\s to
\s user
to ":"
to":" user
@example.com ","
subject ":"
ic e
j am
jam \s
an \s
number "}}]
fo r\s
of f
time r\s
minute s":
\s P
1 5
h a
Query:\s w
time ":"
e d
r n
":"boolean "}}]
app ":"
me et
meet ing
location ":"
ar i
g oo
\s a
L as
Las kar
Laskar \sP
Laskar\sP e
Laskar\sPe lang
Laskar\sPelang i
i ma
l e\s
light s
"," on
","on ":
\s m
ap a\s
ng ?
Query:\s jam\s
Query:\sjam\s ber
apa\s se
apa\sse kar
apa\ssekar a
apa\ssekara ng?
Query:\sw ha
\si s
v o
vo ice
song ":"
ter ima
terima \s
terima\s kasi
terima\skasi h
alarm \s
s "}}]
t u
i t
text ":"
"," lang
","lang ":"
\s c
a "}}]
Query:\s email
@example.com \sa
@example.com\sa b
Query:\swha t\s
Query:\swhat\s time
\sis \si
\sis\si t
\sis\sit ?
on \s
room ":"
goo d
good \sm
good\sm o
good\smo rn
good\smorn ing
: 0
:0 0
ame r
i n
in voice
Query:\ss end
Query:\ssend \s
Query:\ssend\s mail
\sto \suser
@example.com :\s
h ap
\s Y
' s
's \sthe\s
's\sthe\s weather
le\s p
q ":"
Query:\sset\s a\s
timer\s for\s
\s minutes
app":" c
Query:\s b
k e\s
o k
n e
ne ed
need le\sp
needle\sp ap
needle\spap er
Query:\sb u
Query:\sbu k
Query:\sbuk a\s
Query:\sbuka\s ap
Query:\sbuka\sap li
Query:\s timer\s
\s men
\smen it
S hap
Shap e\s
Shape\s of
Shape\sof \sY
Shape\sof\sY ou
al end
alend ar
4 5
es "}}]
ou t\s
\s off
off ice
","on": f
","on":f al
","on":fal se
","on":false }}]
o w
a g
meeting "}}]
S an\s
San\s F
San\sF r
San\sFr an
San\sFran c
San\sFranc i
San\sFranci s
San\sFrancis co
6 :
6: 30
u a
ua ca
uaca \s
Query:\s open
ed room
li v
liv ing
living \s
living\s room
1 8
18 :
18: 45
2 1
21 :
21: 15
\sin \s
0 6:30
Query:\s hello
minutes": 30
minutes":30 }}]
Query:\s alarm\s
Query:\s play
Query:\splay \s
me \s
Query:\s tu
Query:\stu rn
\sthe\s lights
\sthe\slights \sin
J a
Ja kar
Jakar t
Query:\s translate
\s '
' \sto
subject":" hello
1 0
invoice "}}]
me s
mes s
mess ag
\s on
","on": tr
","on":tr u
","on":tru e
","on":true }}]
1 2
Query:\s h
'\sto \s
Query:\sopen \sc
\s lights
Query:\s p
Query:\sp u
Query:\spu t\s
Query:\sput\s on\s
Query:\sset\s an\s
alarm\s for\s
","lang":" es"}}]
room":" office
Query:\s H
Query:\sH ow
d a
da y
day ?
0 7
07 :00
amer a
app":"c amer
app":"camer a"}}]
P ari
minutes": 15
